3f80000040000000404000004080000040a0000040c0000040e000004100000041100000412000004130000041400000415000004160000041700000418000004190000041a0000041b0000041c0000041d0000041e0000041f00000420000004210000042200000423000004240000042500000426000004270000042800000
40000000404000004080000040a0000040c0000040e000004100000041100000412000004130000041400000415000004160000041700000418000004190000041a0000041b0000041c0000041d0000041e0000041f00000420000004210000042200000423000004240000042500000426000004270000042800000428c0000
404000004080000040a0000040c0000040e000004100000041100000412000004130000041400000415000004160000041700000418000004190000041a0000041b0000041c0000041d0000041e0000041f00000420000004210000042200000423000004240000042500000426000004270000042800000428c000042960000
4080000040a0000040c0000040e000004100000041100000412000004130000041400000415000004160000041700000418000004190000041a0000041b0000041c0000041d0000041e0000041f00000420000004210000042200000423000004240000042500000426000004270000042800000428c00004296000042a00000
40a0000040c0000040e000004100000041100000412000004130000041400000415000004160000041700000418000004190000041a0000041b0000041c0000041d0000041e0000041f00000420000004210000042200000423000004240000042500000426000004270000042800000428c00004296000042a0000042aa0000
40c0000040e000004100000041100000412000004130000041400000415000004160000041700000418000004190000041a0000041b0000041c0000041d0000041e0000041f00000420000004210000042200000423000004240000042500000426000004270000042800000428c00004296000042a0000042aa000042b40000
40e000004100000041100000412000004130000041400000415000004160000041700000418000004190000041a0000041b0000041c0000041d0000041e0000041f00000420000004210000042200000423000004240000042500000426000004270000042800000428c00004296000042a0000042aa000042b4000042be0000
4100000041100000412000004130000041400000415000004160000041700000418000004190000041a0000041b0000041c0000041d0000041e0000041f00000420000004210000042200000423000004240000042500000426000004270000042800000428c00004296000042a0000042aa000042b4000042be000042c80000
41100000412000004130000041400000415000004160000041700000418000004190000041a0000041b0000041c0000041d0000041e0000041f00000420000004210000042200000423000004240000042500000426000004270000042800000428c00004296000042a0000042aa000042b4000042be000042c8000042d20000
412000004130000041400000415000004160000041700000418000004190000041a0000041b0000041c0000041d0000041e0000041f00000420000004210000042200000423000004240000042500000426000004270000042800000428c00004296000042a0000042aa000042b4000042be000042c8000042d2000042dc0000
4130000041400000415000004160000041700000418000004190000041a0000041b0000041c0000041d0000041e0000041f00000420000004210000042200000423000004240000042500000426000004270000042800000428c00004296000042a0000042aa000042b4000042be000042c8000042d2000042dc000042e60000
41400000415000004160000041700000418000004190000041a0000041b0000041c0000041d0000041e0000041f00000420000004210000042200000423000004240000042500000426000004270000042800000428c00004296000042a0000042aa000042b4000042be000042c8000042d2000042dc000042e6000042f00000
415000004160000041700000418000004190000041a0000041b0000041c0000041d0000041e0000041f00000420000004210000042200000423000004240000042500000426000004270000042800000428c00004296000042a0000042aa000042b4000042be000042c8000042d2000042dc000042e6000042f0000042fa0000
4160000041700000418000004190000041a0000041b0000041c0000041d0000041e0000041f00000420000004210000042200000423000004240000042500000426000004270000042800000428c00004296000042a0000042aa000042b4000042be000042c8000042d2000042dc000042e6000042f0000042fa000043040000
41700000418000004190000041a0000041b0000041c0000041d0000041e0000041f00000420000004210000042200000423000004240000042500000426000004270000042800000428c00004296000042a0000042aa000042b4000042be000042c8000042d2000042dc000042e6000042f0000042fa000043040000430e0000
418000004190000041a0000041b0000041c0000041d0000041e0000041f00000420000004210000042200000423000004240000042500000426000004270000042800000428c00004296000042a0000042aa000042b4000042be000042c8000042d2000042dc000042e6000042f0000042fa000043040000430e000043180000
4190000041a0000041b0000041c0000041d0000041e0000041f00000420000004210000042200000423000004240000042500000426000004270000042800000428c00004296000042a0000042aa000042b4000042be000042c8000042d2000042dc000042e6000042f0000042fa000043040000430e00004318000043220000
41a0000041b0000041c0000041d0000041e0000041f00000420000004210000042200000423000004240000042500000426000004270000042800000428c00004296000042a0000042aa000042b4000042be000042c8000042d2000042dc000042e6000042f0000042fa000043040000430e00004318000043220000432c0000
41b0000041c0000041d0000041e0000041f00000420000004210000042200000423000004240000042500000426000004270000042800000428c00004296000042a0000042aa000042b4000042be000042c8000042d2000042dc000042e6000042f0000042fa000043040000430e00004318000043220000432c000043360000
41c0000041d0000041e0000041f00000420000004210000042200000423000004240000042500000426000004270000042800000428c00004296000042a0000042aa000042b4000042be000042c8000042d2000042dc000042e6000042f0000042fa000043040000430e00004318000043220000432c00004336000043400000
41d0000041e0000041f00000420000004210000042200000423000004240000042500000426000004270000042800000428c00004296000042a0000042aa000042b4000042be000042c8000042d2000042dc000042e6000042f0000042fa000043040000430e00004318000043220000432c00004336000043400000434a0000
41e0000041f00000420000004210000042200000423000004240000042500000426000004270000042800000428c00004296000042a0000042aa000042b4000042be000042c8000042d2000042dc000042e6000042f0000042fa000043040000430e00004318000043220000432c00004336000043400000434a000043540000
41f00000420000004210000042200000423000004240000042500000426000004270000042800000428c00004296000042a0000042aa000042b4000042be000042c8000042d2000042dc000042e6000042f0000042fa000043040000430e00004318000043220000432c00004336000043400000434a000043540000435e0000
420000004210000042200000423000004240000042500000426000004270000042800000428c00004296000042a0000042aa000042b4000042be000042c8000042d2000042dc000042e6000042f0000042fa000043040000430e00004318000043220000432c00004336000043400000434a000043540000435e000043680000
4210000042200000423000004240000042500000426000004270000042800000428c00004296000042a0000042aa000042b4000042be000042c8000042d2000042dc000042e6000042f0000042fa000043040000430e00004318000043220000432c00004336000043400000434a000043540000435e00004368000043720000
42200000423000004240000042500000426000004270000042800000428c00004296000042a0000042aa000042b4000042be000042c8000042d2000042dc000042e6000042f0000042fa000043040000430e00004318000043220000432c00004336000043400000434a000043540000435e00004368000043720000437c0000
423000004240000042500000426000004270000042800000428c00004296000042a0000042aa000042b4000042be000042c8000042d2000042dc000042e6000042f0000042fa000043040000430e00004318000043220000432c00004336000043400000434a000043540000435e00004368000043720000437c000043860000
4240000042500000426000004270000042800000428c00004296000042a0000042aa000042b4000042be000042c8000042d2000042dc000042e6000042f0000042fa000043040000430e00004318000043220000432c00004336000043400000434a000043540000435e00004368000043720000437c00004386000043900000
42500000426000004270000042800000428c00004296000042a0000042aa000042b4000042be000042c8000042d2000042dc000042e6000042f0000042fa000043040000430e00004318000043220000432c00004336000043400000434a000043540000435e00004368000043720000437c00004386000043900000439a0000
426000004270000042800000428c00004296000042a0000042aa000042b4000042be000042c8000042d2000042dc000042e6000042f0000042fa000043040000430e00004318000043220000432c00004336000043400000434a000043540000435e00004368000043720000437c00004386000043900000439a000043a40000
4270000042800000428c00004296000042a0000042aa000042b4000042be000042c8000042d2000042dc000042e6000042f0000042fa000043040000430e00004318000043220000432c00004336000043400000434a000043540000435e00004368000043720000437c00004386000043900000439a000043a4000043ae0000
42800000428c00004296000042a0000042aa000042b4000042be000042c8000042d2000042dc000042e6000042f0000042fa000043040000430e00004318000043220000432c00004336000043400000434a000043540000435e00004368000043720000437c00004386000043900000439a000043a4000043ae000043b80000
428c00004296000042a0000042aa000042b4000042be000042c8000042d2000042dc000042e6000042f0000042fa000043040000430e00004318000043220000432c00004336000043400000434a000043540000435e00004368000043720000437c00004386000043900000439a000043a4000043ae000043b8000043c20000
4296000042a0000042aa000042b4000042be000042c8000042d2000042dc000042e6000042f0000042fa000043040000430e00004318000043220000432c00004336000043400000434a000043540000435e00004368000043720000437c00004386000043900000439a000043a4000043ae000043b8000043c2000043cc0000
42a0000042aa000042b4000042be000042c8000042d2000042dc000042e6000042f0000042fa000043040000430e00004318000043220000432c00004336000043400000434a000043540000435e00004368000043720000437c00004386000043900000439a000043a4000043ae000043b8000043c2000043cc000043d60000
42aa000042b4000042be000042c8000042d2000042dc000042e6000042f0000042fa000043040000430e00004318000043220000432c00004336000043400000434a000043540000435e00004368000043720000437c00004386000043900000439a000043a4000043ae000043b8000043c2000043cc000043d6000043e00000
42b4000042be000042c8000042d2000042dc000042e6000042f0000042fa000043040000430e00004318000043220000432c00004336000043400000434a000043540000435e00004368000043720000437c00004386000043900000439a000043a4000043ae000043b8000043c2000043cc000043d6000043e0000043ea0000
42be000042c8000042d2000042dc000042e6000042f0000042fa000043040000430e00004318000043220000432c00004336000043400000434a000043540000435e00004368000043720000437c00004386000043900000439a000043a4000043ae000043b8000043c2000043cc000043d6000043e0000043ea000043f40000
42c8000042d2000042dc000042e6000042f0000042fa000043040000430e00004318000043220000432c00004336000043400000434a000043540000435e00004368000043720000437c00004386000043900000439a000043a4000043ae000043b8000043c2000043cc000043d6000043e0000043ea000043f4000043fe0000
42d2000042dc000042e6000042f0000042fa000043040000430e00004318000043220000432c00004336000043400000434a000043540000435e00004368000043720000437c00004386000043900000439a000043a4000043ae000043b8000043c2000043cc000043d6000043e0000043ea000043f4000043fe000044080000
42dc000042e6000042f0000042fa000043040000430e00004318000043220000432c00004336000043400000434a000043540000435e00004368000043720000437c00004386000043900000439a000043a4000043ae000043b8000043c2000043cc000043d6000043e0000043ea000043f4000043fe00004408000044120000
42e6000042f0000042fa000043040000430e00004318000043220000432c00004336000043400000434a000043540000435e00004368000043720000437c00004386000043900000439a000043a4000043ae000043b8000043c2000043cc000043d6000043e0000043ea000043f4000043fe00004408000044120000441c0000
42f0000042fa000043040000430e00004318000043220000432c00004336000043400000434a000043540000435e00004368000043720000437c00004386000043900000439a000043a4000043ae000043b8000043c2000043cc000043d6000043e0000043ea000043f4000043fe00004408000044120000441c000044260000
42fa000043040000430e00004318000043220000432c00004336000043400000434a000043540000435e00004368000043720000437c00004386000043900000439a000043a4000043ae000043b8000043c2000043cc000043d6000043e0000043ea000043f4000043fe00004408000044120000441c00004426000044300000
43040000430e00004318000043220000432c00004336000043400000434a000043540000435e00004368000043720000437c00004386000043900000439a000043a4000043ae000043b8000043c2000043cc000043d6000043e0000043ea000043f4000043fe00004408000044120000441c00004426000044300000443a0000
430e00004318000043220000432c00004336000043400000434a000043540000435e00004368000043720000437c00004386000043900000439a000043a4000043ae000043b8000043c2000043cc000043d6000043e0000043ea000043f4000043fe00004408000044120000441c00004426000044300000443a000044440000
4318000043220000432c00004336000043400000434a000043540000435e00004368000043720000437c00004386000043900000439a000043a4000043ae000043b8000043c2000043cc000043d6000043e0000043ea000043f4000043fe00004408000044120000441c00004426000044300000443a000044440000444e0000
43220000432c00004336000043400000434a000043540000435e00004368000043720000437c00004386000043900000439a000043a4000043ae000043b8000043c2000043cc000043d6000043e0000043ea000043f4000043fe00004408000044120000441c00004426000044300000443a000044440000444e000044580000
432c00004336000043400000434a000043540000435e00004368000043720000437c00004386000043900000439a000043a4000043ae000043b8000043c2000043cc000043d6000043e0000043ea000043f4000043fe00004408000044120000441c00004426000044300000443a000044440000444e00004458000044620000
4336000043400000434a000043540000435e00004368000043720000437c00004386000043900000439a000043a4000043ae000043b8000043c2000043cc000043d6000043e0000043ea000043f4000043fe00004408000044120000441c00004426000044300000443a000044440000444e00004458000044620000446c0000
43400000434a000043540000435e00004368000043720000437c00004386000043900000439a000043a4000043ae000043b8000043c2000043cc000043d6000043e0000043ea000043f4000043fe00004408000044120000441c00004426000044300000443a000044440000444e00004458000044620000446c000044760000
434a000043540000435e00004368000043720000437c00004386000043900000439a000043a4000043ae000043b8000043c2000043cc000043d6000043e0000043ea000043f4000043fe00004408000044120000441c00004426000044300000443a000044440000444e00004458000044620000446c00004476000044800000
3f80000040000000404000004080000040a0000040c0000040e000004100000041100000412000004130000041400000415000004160000041700000418000004190000041a0000041b0000041c0000041d0000041e0000041f00000420000004210000042200000423000004240000042500000426000004270000042800000
40000000404000004080000040a0000040c0000040e000004100000041100000412000004130000041400000415000004160000041700000418000004190000041a0000041b0000041c0000041d0000041e0000041f00000420000004210000042200000423000004240000042500000426000004270000042800000428c0000
404000004080000040a0000040c0000040e000004100000041100000412000004130000041400000415000004160000041700000418000004190000041a0000041b0000041c0000041d0000041e0000041f00000420000004210000042200000423000004240000042500000426000004270000042800000428c000042960000
4080000040a0000040c0000040e000004100000041100000412000004130000041400000415000004160000041700000418000004190000041a0000041b0000041c0000041d0000041e0000041f00000420000004210000042200000423000004240000042500000426000004270000042800000428c00004296000042a00000
40a0000040c0000040e000004100000041100000412000004130000041400000415000004160000041700000418000004190000041a0000041b0000041c0000041d0000041e0000041f00000420000004210000042200000423000004240000042500000426000004270000042800000428c00004296000042a0000042aa0000
40c0000040e000004100000041100000412000004130000041400000415000004160000041700000418000004190000041a0000041b0000041c0000041d0000041e0000041f00000420000004210000042200000423000004240000042500000426000004270000042800000428c00004296000042a0000042aa000042b40000
40e000004100000041100000412000004130000041400000415000004160000041700000418000004190000041a0000041b0000041c0000041d0000041e0000041f00000420000004210000042200000423000004240000042500000426000004270000042800000428c00004296000042a0000042aa000042b4000042be0000
4100000041100000412000004130000041400000415000004160000041700000418000004190000041a0000041b0000041c0000041d0000041e0000041f00000420000004210000042200000423000004240000042500000426000004270000042800000428c00004296000042a0000042aa000042b4000042be000042c80000
41100000412000004130000041400000415000004160000041700000418000004190000041a0000041b0000041c0000041d0000041e0000041f00000420000004210000042200000423000004240000042500000426000004270000042800000428c00004296000042a0000042aa000042b4000042be000042c8000042d20000
412000004130000041400000415000004160000041700000418000004190000041a0000041b0000041c0000041d0000041e0000041f00000420000004210000042200000423000004240000042500000426000004270000042800000428c00004296000042a0000042aa000042b4000042be000042c8000042d2000042dc0000
4130000041400000415000004160000041700000418000004190000041a0000041b0000041c0000041d0000041e0000041f00000420000004210000042200000423000004240000042500000426000004270000042800000428c00004296000042a0000042aa000042b4000042be000042c8000042d2000042dc000042e60000
41400000415000004160000041700000418000004190000041a0000041b0000041c0000041d0000041e0000041f00000420000004210000042200000423000004240000042500000426000004270000042800000428c00004296000042a0000042aa000042b4000042be000042c8000042d2000042dc000042e6000042f00000